#loc0 = loc(unknown)
"builtin.module"() ( {
  "tf_saved_model.global_tensor"() {is_mutable, sym_name = "dense_4/bias", type = tensor<128xf32>, value = dense<"0x0517023E2B2C433D9E51443D2B234A3B43FC1BBDF3C3CE3C0AF1AE3DF5976E3D8F2B37BD0516983D9EFF8B3DB4173CBC4181D4BA233E2A3DE35B893C74C27E3D2F036C3DD57D943CE444893C6EA2BA3D843C0E3DFACC5F3D50511B3C6387323E4CD25F3D8FEE8D3DC0B077BD5CCC30BD63C3BA3D16FE823DCC47FCBCA89D87BDB08E633D16A0FB3B0884C8BC5F76A83D722E4CBAFB3A0FBD6A9FCD3DFB5E343D0CED303DB04305BDE6B62F3DE556BD3DDF3B503DF1CF94BCC2DD7C3C8845713CFF0C483DD82AC43DAC67313D5F7C683DBCBE883CA898E63BFA6285BC0203B8BC136703BD08FE9D3DE068E7BCEE16BBBCA4EDF43C120314BAD5B2A13C0B39973D1E4264BC9E5C27BD15494FBC03AB053DAA3427BC19A5AB3DD0303E3D06E6F43C8CEAB63D8D6AF63DD08B3BBC3B59683D358D64BD2BB47ABD41D15DBD8964D0BC4E3C543CEAD705BDE366D5BCB8A144B9400F60BBC936863DFBE4303D4CCFB23C3902543DE149CFBBF06A5D3DD71C9B3D9107C8BB293F8FBCA36AA4BD23B7603D658AD23CF8B4E13D30B8203D57F80C3E476C733DA49C9CBDF2862A3DE2DB3E3D1E3712BD3D7EA53D1E76A8BAAE8CDE3D33F7A53DA33C353CF18E303D5C1C243DE0E3893DD51322BBC2C16C3D39B2D1BC75AF56BDFC0F8D3D6A329DBC0B06D6BCD8539B3D19FED23D3EBE30BDC1AA723DF824803D0E1A043D03FBAC3D1108B6BB"> : tensor<128xf32>} : () -> () loc(#loc1)
  "tf_saved_model.global_tensor"() {is_mutable, sym_name = "dense_4/kernel", type = tensor<784x128xf32>, value = 